#ifndef SINE_MODEL_H
#define SINE_MODEL_H


unsigned int sine_model_len = 2992;
unsigned char sine_model[] = {
 0x20, 0x00, 0x00, 0x00, 0x54, 0x46, 0x4c, 0x33, 0x00, 0x00, 0x00, 0x00,
  0x00, 0x00, 0x12, 0x00, 0x1c, 0x00, 0x04, 0x00, 0x08, 0x00, 0x0c, 0x00,
  0x10, 0x00, 0x14, 0x00, 0x00, 0x00, 0x18, 0x00, 0x12, 0x00, 0x00, 0x00,
  0x03, 0x00, 0x00, 0x00, 0x64, 0x0b, 0x00, 0x00, 0x6c, 0x06, 0x00, 0x00,
  0x54, 0x06, 0x00, 0x00, 0x3c, 0x00, 0x00, 0x00, 0x04, 0x00, 0x00, 0x00,
  0x01, 0x00, 0x00, 0x00, 0x0c, 0x00, 0x00, 0x00, 0x08, 0x00, 0x0c, 0x00,
  0x04, 0x00, 0x08, 0x00, 0x08, 0x00, 0x00, 0x00, 0x08, 0x00, 0x00, 0x00,
  0x0b, 0x00, 0x00, 0x00, 0x13, 0x00, 0x00, 0x00, 0x6d, 0x69, 0x6e, 0x5f,
  0x72, 0x75, 0x6e, 0x74, 0x69, 0x6d, 0x65, 0x5f, 0x76, 0x65, 0x72, 0x73,
  0x69, 0x6f, 0x6e, 0x00, 0x0c, 0x00, 0x00, 0x00, 0x08, 0x06, 0x00, 0x00,
  0xf4, 0x05, 0x00, 0x00, 0x98, 0x05, 0x00, 0x00, 0x34, 0x05, 0x00, 0x00,
  0x20, 0x05, 0x00, 0x00, 0xcc, 0x04, 0x00, 0x00, 0xb8, 0x00, 0x00, 0x00,
  0x64, 0x00, 0x00, 0x00, 0x58, 0x00, 0x00, 0x00, 0x44, 0x00, 0x00, 0x00,
  0x30, 0x00, 0x00, 0x00, 0x04, 0x00, 0x00, 0x00, 0x96, 0xfa, 0xff, 0xff,
  0x04, 0x00, 0x00, 0x00, 0x10, 0x00, 0x00, 0x00, 0x31, 0x2e, 0x35, 0x2e,
  0x30, 0x00, 0x00, 0x00, 0x00, 0x00, 0x00, 0x00, 0x00, 0x00, 0x00, 0x00,
  0x00, 0x00, 0x00, 0x00, 0x00, 0x00, 0x00, 0x00, 0x00, 0x00, 0x00, 0x00,
  0x68, 0xf5, 0xff, 0xff, 0x00, 0x00, 0x00, 0x00, 0x00, 0x00, 0x00, 0x00,
  0x00, 0x00, 0x00, 0x00, 0x78, 0xf5, 0xff, 0xff, 0x00, 0x00, 0x00, 0x00,
  0x00, 0x00, 0x00, 0x00, 0x00, 0x00, 0x00, 0x00, 0x88, 0xf5, 0xff, 0xff,
  0x00, 0x00, 0x00, 0x00, 0xe6, 0xfa, 0xff, 0xff, 0x04, 0x00, 0x00, 0x00,
  0x40, 0x00, 0x00, 0x00, 0xfd, 0x80, 0x66, 0xbf, 0x40, 0x4a, 0x0f, 0x3f,
  0xec, 0x6c, 0x62, 0x3e, 0xd1, 0x97, 0x95, 0xbf, 0x65, 0x24, 0xae, 0x3f,
  0x5e, 0xfb, 0x8c, 0x3e, 0x32, 0x34, 0xef, 0xbe, 0xaf, 0xde, 0x12, 0x3f,
  0x38, 0x89, 0x08, 0x3f, 0xdf, 0x9c, 0x23, 0x3f, 0x4b, 0x70, 0x81, 0xbe,
  0x89, 0x86, 0x8c, 0xbc, 0xff, 0xc1, 0xcf, 0xbe, 0xd7, 0xcb, 0x17, 0xbf,
  0xfb, 0xcd, 0xb5, 0x3f, 0x54, 0xa8, 0x6a, 0x3f, 0x00, 0x00, 0x00, 0x00,
  0x36, 0xfb, 0xff, 0xff, 0x04, 0x00, 0x00, 0x00, 0x00, 0x04, 0x00, 0x00,
  0xf1, 0xf6, 0xc2, 0x3e, 0x82, 0x8e, 0xb4, 0xbe, 0xc4, 0xaf, 0xda, 0x3d,
  0x80, 0x23, 0x24, 0xbe, 0xc8, 0x39, 0x99, 0xbe, 0x6c, 0x27, 0x3e, 0xbe,
  0x28, 0x36, 0x09, 0xbe, 0x93, 0x3b, 0xb2, 0x3e, 0xfa, 0xa9, 0x37, 0x3e,
  0x14, 0xad, 0xf8, 0x3d, 0xcf, 0x9c, 0xc3, 0xbe, 0x20, 0x2e, 0xde, 0x3c,
  0x4f, 0x7b, 0x0f, 0x3f, 0x95, 0x2e, 0xdf, 0xbd, 0x8f, 0x9a, 0xbd, 0x3e,
  0x6c, 0xe7, 0xa3, 0xbe, 0x83, 0x06, 0x13, 0xbf, 0x90, 0x97, 0xb4, 0x3d,
  0x0c, 0x38, 0xeb, 0xbd, 0x2c, 0x97, 0x54, 0xbe, 0x2f, 0x2a, 0x87, 0x3e,
  0xf6, 0x1e, 0x15, 0x3e, 0x9e, 0x5e, 0xe7, 0xbe, 0x3c, 0xce, 0x85, 0xbd,
  0xd1, 0xba, 0x09, 0xbf, 0x20, 0x00, 0xb3, 0xbe, 0xbd, 0xf7, 0x02, 0xbe,
  0x05, 0xa0, 0x9e, 0x3e, 0x10, 0x57, 0x44, 0xbe, 0xe4, 0xc6, 0x57, 0x3b,
  0x15, 0x9b, 0x56, 0xbe, 0x3f, 0x8c, 0xb5, 0x3e, 0x86, 0x3d, 0xce, 0xbe,
  0x6a, 0xa6, 0x60, 0xbe, 0x8c, 0x3c, 0xa6, 0xbd, 0x80, 0x47, 0xa4, 0xbc,
  0x6b, 0x75, 0xc3, 0xbe, 0x5c, 0x9d, 0xd6, 0xbd, 0xc9, 0x3c, 0x39, 0x3d,
  0x30, 0xfe, 0x3a, 0xbd, 0x16, 0x79, 0xb4, 0x3e, 0xc2, 0x38, 0x9a, 0xbe,
  0x0f, 0x06, 0xa7, 0x3e, 0x9a, 0x10, 0xbd, 0xbe, 0x8c, 0x92, 0x84, 0xbe,
  0x8f, 0x18, 0x3e, 0xbe, 0xd1, 0xda, 0xbd, 0x3e, 0xae, 0xeb, 0xd1, 0x3e,
  0x39, 0x26, 0x4c, 0xbe, 0xf4, 0x61, 0x22, 0xbf, 0x50, 0x16, 0x73, 0xbd,
  0xb5, 0xac, 0x52, 0xbe, 0x59, 0xfe, 0xbc, 0x3e, 0xb5, 0xea, 0xdc, 0x3e,
  0xed, 0x2e, 0x9b, 0xbe, 0x5a, 0x84, 0x2c, 0x3e, 0xc4, 0xee, 0x21, 0xbf,
  0xa7, 0x15, 0xa1, 0xbe, 0x7a, 0xf9, 0x14, 0xbe, 0x7d, 0x29, 0x94, 0x3e,
  0x41, 0x61, 0x2e, 0x3f, 0x8e, 0xfe, 0x3e, 0xbe, 0x10, 0xa5, 0x2c, 0x3d,
  0x14, 0xdf, 0xfb, 0x3b, 0xaa, 0x87, 0x8d, 0xbf, 0x21, 0xe0, 0xe3, 0x3d,
  0x36, 0xf3, 0xaf, 0xbe, 0x60, 0x71, 0x9e, 0x3c, 0xbc, 0x03, 0xab, 0x3d,
  0xe9, 0xb5, 0x9f, 0x3e, 0xea, 0xd0, 0x5f, 0xbd, 0x36, 0xc0, 0x49, 0xbe,
  0x82, 0xda, 0xe0, 0xbe, 0x0a, 0xaf, 0x45, 0x3e, 0xd9, 0xb4, 0xbf, 0xbe,
  0x6e, 0x95, 0xb5, 0x3d, 0x24, 0x03, 0x13, 0x3f, 0xd5, 0xa9, 0xfe, 0x3e,
  0x14, 0x94, 0x96, 0x3d, 0xfd, 0x1c, 0x96, 0x3c, 0xc4, 0xc2, 0x9a, 0xbd,
  0x58, 0x60, 0x06, 0x3e, 0x5e, 0x9f, 0x58, 0xbe, 0xc2, 0x81, 0x2d, 0x3e,
  0x5c, 0xa9, 0xc7, 0xbd, 0x14, 0x74, 0xd7, 0x3d, 0xe9, 0xe4, 0xdc, 0x3e,
  0x6e, 0x6c, 0x0a, 0x3e, 0x78, 0xb3, 0xfe, 0x3d, 0x99, 0x85, 0x8c, 0x3e,
  0x02, 0xd4, 0xa7, 0x3d, 0xad, 0x00, 0x88, 0x3e, 0xcf, 0xc2, 0x88, 0xbe,
  0xed, 0x99, 0x9b, 0x3e, 0x15, 0x45, 0xbd, 0x3e, 0xe6, 0x09, 0xd5, 0x3c,
  0xf0, 0x18, 0xb5, 0x3c, 0x81, 0xa0, 0xd3, 0xbe, 0x12, 0x5a, 0x0e, 0x3e,
  0x78, 0x92, 0x72, 0x3d, 0x14, 0xf7, 0x8d, 0xbd, 0xde, 0xd2, 0x48, 0x3e,
  0x40, 0xac, 0x9c, 0x3c, 0x3d, 0x8f, 0x8d, 0xbe, 0x01, 0xad, 0x96, 0x3e,
  0x0d, 0x7a, 0xb7, 0x3e, 0x5b, 0x70, 0xd0, 0xbe, 0xd0, 0xb2, 0x7d, 0x3d,
  0x2e, 0x28, 0x82, 0xbe, 0x44, 0x68, 0xba, 0x3d, 0x50, 0xaa, 0xf7, 0xbd,
  0x08, 0xcc, 0x57, 0xbe, 0x19, 0xf7, 0xfa, 0x3e, 0xa9, 0xfc, 0xd6, 0x3d,
  0x00, 0x07, 0xbc, 0x3c, 0xe9, 0x24, 0xaa, 0x3e, 0x52, 0xd3, 0xd4, 0xbe,
  0x58, 0x0e, 0x5f, 0x3d, 0xc4, 0xa0, 0x0d, 0x3e, 0x2b, 0x60, 0x99, 0x3e,
  0x7c, 0x53, 0xa5, 0x3e, 0x9c, 0x7e, 0xb9, 0xbe, 0xb9, 0x54, 0x16, 0x3e,
  0x7f, 0xf4, 0x01, 0xbe, 0xcc, 0xa6, 0x62, 0xbf, 0x3a, 0x65, 0xa4, 0xbe,
  0xa5, 0x38, 0xd0, 0x3e, 0x28, 0xa9, 0x57, 0x3e, 0x1c, 0x69, 0x2b, 0x3f,
  0x2a, 0xe5, 0x86, 0x3e, 0xe8, 0x88, 0x1a, 0x3d, 0x27, 0xb6, 0x92, 0x3e,
  0xb0, 0x74, 0xe8, 0x3c, 0x7f, 0x1f, 0xc9, 0x3e, 0x52, 0xb6, 0x83, 0x3e,
  0xf8, 0xe4, 0x04, 0xbe, 0x1a, 0x40, 0xec, 0xbd, 0x1e, 0x49, 0x17, 0xbe,
  0x7b, 0xd9, 0xc5, 0xbe, 0x92, 0xe2, 0x3a, 0x3e, 0x1c, 0x6f, 0xee, 0xbe,
  0xfc, 0xa7, 0x98, 0xbe, 0x50, 0xb7, 0xad, 0xbe, 0xd4, 0x42, 0x85, 0x3e,
  0x43, 0x4a, 0xca, 0xbe, 0xa9, 0x9f, 0xac, 0x3e, 0x00, 0x6c, 0xbd, 0x3c,
  0x70, 0x68, 0x32, 0x3d, 0x70, 0xa9, 0xbf, 0xbe, 0x00, 0xce, 0xd6, 0xbe,
  0xc3, 0x1e, 0x95, 0xbe, 0x2a, 0x9d, 0xb4, 0xbe, 0x4b, 0xa1, 0xf4, 0xbe,
  0x68, 0x0a, 0x23, 0xbd, 0x91, 0xc1, 0xd4, 0xbe, 0x4d, 0x22, 0x17, 0xbe,
  0xda, 0xe6, 0x73, 0x3e, 0xa7, 0xa4, 0x42, 0x3e, 0x44, 0xd1, 0xb1, 0x3d,
  0x5a, 0x99, 0x64, 0xbe, 0x09, 0x8f, 0x17, 0x3d, 0xd6, 0x47, 0x0c, 0xbe,
  0x74, 0x0e, 0xe7, 0xbd, 0x20, 0x74, 0x2e, 0x3c, 0xc6, 0xa0, 0xcb, 0xbe,
  0x46, 0x25, 0x63, 0x3e, 0xfa, 0x2a, 0x38, 0x3e, 0x13, 0x48, 0x85, 0xbe,
  0xf2, 0x87, 0x72, 0xbe, 0x4c, 0xd2, 0x97, 0xbd, 0xc8, 0xb2, 0x33, 0xbe,
  0xa4, 0x4a, 0xd4, 0x3e, 0x0b, 0xe9, 0xa2, 0x3d, 0x05, 0x44, 0xe8, 0x3e,
  0x4d, 0xe4, 0x9b, 0x3e, 0x19, 0x03, 0xc3, 0x3e, 0x9a, 0x93, 0x3a, 0x3e,
  0xe6, 0x8f, 0xf5, 0x3d, 0x1c, 0x28, 0xc5, 0x3d, 0x76, 0x3f, 0x06, 0xbe,
  0x1a, 0x30, 0x50, 0x3e, 0xc7, 0xf2, 0xb9, 0x3e, 0xf0, 0x07, 0x16, 0x3c,
  0xad, 0x36, 0xb4, 0x3e, 0xd8, 0xf2, 0xa9, 0xbe, 0x30, 0x6a, 0x77, 0xbd,
  0xfb, 0xba, 0x57, 0xbe, 0xf9, 0xf9, 0x7b, 0xbd, 0xb1, 0x07, 0xbf, 0xbe,
  0xe0, 0x9c, 0x4c, 0xbe, 0x30, 0xc0, 0x51, 0x3d, 0x30, 0x86, 0xcd, 0x3e,
  0x0e, 0xdf, 0xd8, 0xbe, 0x9f, 0xa7, 0xac, 0x3d, 0x2e, 0xd5, 0xcd, 0xbe,
  0x38, 0xf8, 0x2d, 0x3d, 0x8c, 0x91, 0xf0, 0x3d, 0x98, 0x6d, 0x6f, 0x3d,
  0x44, 0x83, 0x28, 0xbe, 0x27, 0x47, 0xbd, 0x3e, 0xd9, 0xc4, 0x0c, 0x3e,
  0xa4, 0x29, 0xc2, 0x3d, 0x56, 0x07, 0xa1, 0x3e, 0xcf, 0x70, 0xb5, 0xbe,
  0x08, 0x94, 0x0d, 0x3f, 0x69, 0x5b, 0xf1, 0x3e, 0xf2, 0x0c, 0x1f, 0x3e,
  0xba, 0xd9, 0xde, 0x3b, 0x29, 0xa7, 0xff, 0xbe, 0x38, 0x35, 0xe0, 0x3e,
  0xd6, 0xf5, 0x6c, 0x3e, 0xe4, 0x71, 0x82, 0xbd, 0xd6, 0x59, 0x66, 0x3e,
  0xe6, 0xd4, 0x3e, 0xbe, 0xaf, 0x44, 0x51, 0x3e, 0xfa, 0x7c, 0x10, 0x3e,
  0x3e, 0x84, 0x9d, 0xbe, 0x28, 0xfc, 0x00, 0xbd, 0x96, 0xa3, 0x9d, 0x3e,
  0x65, 0x0f, 0xa3, 0xbe, 0x35, 0x93, 0x4f, 0xbe, 0x7a, 0xab, 0x3a, 0xbe,
  0x29, 0x87, 0xd3, 0x3e, 0x9f, 0x1a, 0xf9, 0x3e, 0xc4, 0x54, 0x0b, 0x3e,
  0x46, 0x47, 0x6e, 0x3e, 0x47, 0x05, 0xb3, 0xbe, 0x34, 0x64, 0xc5, 0x3d,
  0x43, 0xb4, 0x68, 0xbe, 0x76, 0xe0, 0x40, 0x3e, 0x74, 0x1a, 0x9d, 0x3e,
  0x90, 0x51, 0x95, 0xbe, 0xbd, 0x5b, 0xd8, 0xbc, 0x34, 0xe2, 0x9d, 0x3d,
  0x5d, 0x28, 0x93, 0x3e, 0x55, 0x86, 0x04, 0xbe, 0x1b, 0x7e, 0xca, 0xbe,
  0xa0, 0xd1, 0x14, 0xbe, 0x58, 0xd9, 0x48, 0xbd, 0xd9, 0x79, 0x08, 0xbf,
  0xe1, 0xca, 0x87, 0xbf, 0xc6, 0x8a, 0xc0, 0xbe, 0x96, 0x12, 0x7b, 0x3e,
  0xe0, 0x14, 0x32, 0x3c, 0x85, 0x03, 0x85, 0x3e, 0x62, 0xae, 0xab, 0xbe,
  0x0c, 0x34, 0x2c, 0xbe, 0x0a, 0x35, 0x40, 0x3e, 0xa9, 0x5b, 0x9e, 0xbc,
  0x70, 0xf7, 0x93, 0xbe, 0x8e, 0xe6, 0x90, 0xbd, 0x80, 0x46, 0x1d, 0x3e,
  0xc7, 0x42, 0x27, 0x3e, 0x89, 0x89, 0xe1, 0x3e, 0x66, 0xd0, 0x04, 0x3e,
  0xac, 0x7b, 0xa5, 0x3e, 0x00, 0x00, 0x00, 0x00, 0x46, 0xff, 0xff, 0xff,
  0x04, 0x00, 0x00, 0x00, 0x40, 0x00, 0x00, 0x00, 0x19, 0x21, 0x68, 0x3e,
  0x76, 0x2f, 0x21, 0x3f, 0x66, 0x70, 0xe6, 0xbe, 0x87, 0xb5, 0x8f, 0xbe,
  0x1c, 0xf4, 0x85, 0xbe, 0xd6, 0x84, 0xe2, 0xbe, 0x4c, 0x48, 0xde, 0x3e,
  0x04, 0xd7, 0x86, 0xbe, 0xc9, 0x3f, 0x79, 0x3e, 0xef, 0xe8, 0xd4, 0xbe,
  0xb5, 0x15, 0x05, 0x3f, 0x3f, 0xb8, 0xa5, 0x3e, 0xf5, 0x36, 0x33, 0xbd,
  0xec, 0xec, 0x4f, 0x3e, 0xcf, 0x7f, 0x0f, 0xbf, 0x75, 0x81, 0x7d, 0x3e,
  0x00, 0x00, 0x00, 0x00, 0x96, 0xff, 0xff, 0xff, 0x04, 0x00, 0x00, 0x00,
  0x04, 0x00, 0x00, 0x00, 0xf8, 0xe7, 0x7d, 0xbe, 0xa6, 0xff, 0xff, 0xff,
  0x04, 0x00, 0x00, 0x00, 0x40, 0x00, 0x00, 0x00, 0x10, 0xc6, 0xa0, 0x3e,
  0x59, 0xa7, 0xf2, 0x3d, 0xf3, 0x2f, 0x0e, 0xbc, 0x10, 0xf5, 0xc3, 0x3e,
  0x45, 0x94, 0xb1, 0x3e, 0x4c, 0xfb, 0x77, 0xbe, 0x00, 0x00, 0x00, 0x00,
  0x34, 0x99, 0x91, 0xbe, 0xcd, 0x55, 0x86, 0xbe, 0x73, 0xf6, 0x8f, 0xbd,
  0x59, 0x10, 0x7c, 0x3d, 0xfd, 0xd3, 0xf7, 0xbb, 0x95, 0x55, 0x8d, 0x3d,
  0xa6, 0xdd, 0x6a, 0x3d, 0x44, 0x49, 0xe5, 0xbe, 0xa2, 0x02, 0xa0, 0x3e,
  0x00, 0x00, 0x00, 0x00, 0x00, 0x00, 0x00, 0x00, 0x00, 0x00, 0x00, 0x00,
  0x00, 0x00, 0x06, 0x00, 0x08, 0x00, 0x04, 0x00, 0x06, 0x00, 0x00, 0x00,
  0x04, 0x00, 0x00, 0x00, 0x40, 0x00, 0x00, 0x00, 0x63, 0xe3, 0x1f, 0xbf,
  0x73, 0xe2, 0x88, 0xbd, 0x00, 0x00, 0x00, 0x00, 0x00, 0x00, 0x00, 0x00,
  0x00, 0x00, 0x00, 0x00, 0x00, 0x00, 0x00, 0x00, 0x6a, 0x5e, 0x13, 0xbf,
  0x00, 0x00, 0x00, 0x00, 0x99, 0x40, 0xd2, 0xbe, 0x00, 0x00, 0x00, 0x00,
  0xb2, 0xd2, 0xa6, 0xbe, 0xf9, 0x94, 0x11, 0x3e, 0x5d, 0xc9, 0x10, 0x3f,
  0x0a, 0xd9, 0xa5, 0x3e, 0x00, 0x00, 0x00, 0x00, 0x85, 0x6f, 0xee, 0x3e,
  0x00, 0x00, 0x00, 0x00, 0x00, 0x00, 0x00, 0x00, 0x00, 0x00, 0x00, 0x00,
  0x08, 0xfb, 0xff, 0xff, 0x00, 0x00, 0x00, 0x00, 0x00, 0x00, 0x00, 0x00,
  0x00, 0x00, 0x00, 0x00, 0x18, 0xfb, 0xff, 0xff, 0x00, 0x00, 0x00, 0x00,
  0x0f, 0x00, 0x00, 0x00, 0x4d, 0x4c, 0x49, 0x52, 0x20, 0x43, 0x6f, 0x6e,
  0x76, 0x65, 0x72, 0x74, 0x65, 0x64, 0x2e, 0x00, 0x01, 0x00, 0x00, 0x00,
  0x14, 0x00, 0x00, 0x00, 0x00, 0x00, 0x0e, 0x00, 0x18, 0x00, 0x04, 0x00,
  0x08, 0x00, 0x0c, 0x00, 0x10, 0x00, 0x14, 0x00, 0x0e, 0x00, 0x00, 0x00,
  0x00, 0x01, 0x00, 0x00, 0xf4, 0x00, 0x00, 0x00, 0xe8, 0x00, 0x00, 0x00,
  0x14, 0x00, 0x00, 0x00, 0x04, 0x00, 0x00, 0x00, 0x04, 0x00, 0x00, 0x00,
  0x6d, 0x61, 0x69, 0x6e, 0x00, 0x00, 0x00, 0x00, 0x03, 0x00, 0x00, 0x00,
  0x90, 0x00, 0x00, 0x00, 0x48, 0x00, 0x00, 0x00, 0x04, 0x00, 0x00, 0x00,
  0xce, 0xff, 0xff, 0xff, 0x00, 0x00, 0x00, 0x08, 0x18, 0x00, 0x00, 0x00,
  0x0c, 0x00, 0x00, 0x00, 0x04, 0x00, 0x00, 0x00, 0x94, 0xfb, 0xff, 0xff,
  0x01, 0x00, 0x00, 0x00, 0x09, 0x00, 0x00, 0x00, 0x03, 0x00, 0x00, 0x00,
  0x08, 0x00, 0x00, 0x00, 0x06, 0x00, 0x00, 0x00, 0x03, 0x00, 0x00, 0x00,
  0x00, 0x00, 0x0e, 0x00, 0x14, 0x00, 0x00, 0x00, 0x08, 0x00, 0x0c, 0x00,
  0x07, 0x00, 0x10, 0x00, 0x0e, 0x00, 0x00, 0x00, 0x00, 0x00, 0x00, 0x08,
  0x1c, 0x00, 0x00, 0x00, 0x10, 0x00, 0x00, 0x00, 0x04, 0x00, 0x00, 0x00,
  0xba, 0xff, 0xff, 0xff, 0x00, 0x00, 0x00, 0x01, 0x01, 0x00, 0x00, 0x00,
  0x08, 0x00, 0x00, 0x00, 0x03, 0x00, 0x00, 0x00, 0x07, 0x00, 0x00, 0x00,
  0x05, 0x00, 0x00, 0x00, 0x02, 0x00, 0x00, 0x00, 0x00, 0x00, 0x0e, 0x00,
  0x16, 0x00, 0x00, 0x00, 0x08, 0x00, 0x0c, 0x00, 0x07, 0x00, 0x10, 0x00,
  0x0e, 0x00, 0x00, 0x00, 0x00, 0x00, 0x00, 0x08, 0x24, 0x00, 0x00, 0x00,
  0x18, 0x00, 0x00, 0x00, 0x0c, 0x00, 0x00, 0x00, 0x00, 0x00, 0x06, 0x00,
  0x08, 0x00, 0x07, 0x00, 0x06, 0x00, 0x00, 0x00, 0x00, 0x00, 0x00, 0x01,
  0x01, 0x00, 0x00, 0x00, 0x07, 0x00, 0x00, 0x00, 0x03, 0x00, 0x00, 0x00,
  0x00, 0x00, 0x00, 0x00, 0x04, 0x00, 0x00, 0x00, 0x01, 0x00, 0x00, 0x00,
  0x01, 0x00, 0x00, 0x00, 0x09, 0x00, 0x00, 0x00, 0x01, 0x00, 0x00, 0x00,
  0x00, 0x00, 0x00, 0x00, 0x0a, 0x00, 0x00, 0x00, 0x88, 0x03, 0x00, 0x00,
  0x14, 0x03, 0x00, 0x00, 0xa4, 0x02, 0x00, 0x00, 0x44, 0x02, 0x00, 0x00,
  0xfc, 0x01, 0x00, 0x00, 0xb4, 0x01, 0x00, 0x00, 0x6c, 0x01, 0x00, 0x00,
  0xdc, 0x00, 0x00, 0x00, 0x4c, 0x00, 0x00, 0x00, 0x04, 0x00, 0x00, 0x00,
  0xb4, 0xfc, 0xff, 0xff, 0x34, 0x00, 0x00, 0x00, 0x0a, 0x00, 0x00, 0x00,
  0x1c, 0x00, 0x00, 0x00, 0x14, 0x00, 0x00, 0x00, 0x04, 0x00, 0x00, 0x00,
  0x02, 0x00, 0x00, 0x00, 0xff, 0xff, 0xff, 0xff, 0x01, 0x00, 0x00, 0x00,
  0xa0, 0xfc, 0xff, 0xff, 0x08, 0x00, 0x00, 0x00, 0x49, 0x64, 0x65, 0x6e,
  0x74, 0x69, 0x74, 0x79, 0x00, 0x00, 0x00, 0x00, 0x02, 0x00, 0x00, 0x00,
  0x01, 0x00, 0x00, 0x00, 0x01, 0x00, 0x00, 0x00, 0xf8, 0xfc, 0xff, 0xff,
  0x7c, 0x00, 0x00, 0x00, 0x09, 0x00, 0x00, 0x00, 0x1c, 0x00, 0x00, 0x00,
  0x14, 0x00, 0x00, 0x00, 0x04, 0x00, 0x00, 0x00, 0x02, 0x00, 0x00, 0x00,
  0xff, 0xff, 0xff, 0xff, 0x10, 0x00, 0x00, 0x00, 0xe4, 0xfc, 0xff, 0xff,
  0x52, 0x00, 0x00, 0x00, 0x73, 0x65, 0x71, 0x75, 0x65, 0x6e, 0x74, 0x69,
  0x61, 0x6c, 0x5f, 0x31, 0x2f, 0x64, 0x65, 0x6e, 0x73, 0x65, 0x5f, 0x34,
  0x2f, 0x4d, 0x61, 0x74, 0x4d, 0x75, 0x6c, 0x3b, 0x73, 0x65, 0x71, 0x75,
  0x65, 0x6e, 0x74, 0x69, 0x61, 0x6c, 0x5f, 0x31, 0x2f, 0x64, 0x65, 0x6e,
  0x73, 0x65, 0x5f, 0x34, 0x2f, 0x42, 0x69, 0x61, 0x73, 0x41, 0x64, 0x64,
  0x3b, 0x73, 0x65, 0x71, 0x75, 0x65, 0x6e, 0x74, 0x69, 0x61, 0x6c, 0x5f,
  0x31, 0x2f, 0x64, 0x65, 0x6e, 0x73, 0x65, 0x5f, 0x34, 0x2f, 0x52, 0x65,
  0x6c, 0x75, 0x00, 0x00, 0x02, 0x00, 0x00, 0x00, 0x01, 0x00, 0x00, 0x00,
  0x10, 0x00, 0x00, 0x00, 0x84, 0xfd, 0xff, 0xff, 0x7c, 0x00, 0x00, 0x00,
  0x08, 0x00, 0x00, 0x00, 0x1c, 0x00, 0x00, 0x00, 0x14, 0x00, 0x00, 0x00,
  0x04, 0x00, 0x00, 0x00, 0x02, 0x00, 0x00, 0x00, 0xff, 0xff, 0xff, 0xff,
  0x10, 0x00, 0x00, 0x00, 0x70, 0xfd, 0xff, 0xff, 0x52, 0x00, 0x00, 0x00,
  0x73, 0x65, 0x71, 0x75, 0x65, 0x6e, 0x74, 0x69, 0x61, 0x6c, 0x5f, 0x31,
  0x2f, 0x64, 0x65, 0x6e, 0x73, 0x65, 0x5f, 0x33, 0x2f, 0x4d, 0x61, 0x74,
  0x4d, 0x75, 0x6c, 0x3b, 0x73, 0x65, 0x71, 0x75, 0x65, 0x6e, 0x74, 0x69,
  0x61, 0x6c, 0x5f, 0x31, 0x2f, 0x64, 0x65, 0x6e, 0x73, 0x65, 0x5f, 0x33,
  0x2f, 0x42, 0x69, 0x61, 0x73, 0x41, 0x64, 0x64, 0x3b, 0x73, 0x65, 0x71,
  0x75, 0x65, 0x6e, 0x74, 0x69, 0x61, 0x6c, 0x5f, 0x31, 0x2f, 0x64, 0x65,
  0x6e, 0x73, 0x65, 0x5f, 0x33, 0x2f, 0x52, 0x65, 0x6c, 0x75, 0x00, 0x00,
  0x02, 0x00, 0x00, 0x00, 0x01, 0x00, 0x00, 0x00, 0x10, 0x00, 0x00, 0x00,
  0x7a, 0xfe, 0xff, 0xff, 0x34, 0x00, 0x00, 0x00, 0x07, 0x00, 0x00, 0x00,
  0x0c, 0x00, 0x00, 0x00, 0x04, 0x00, 0x00, 0x00, 0xec, 0xfd, 0xff, 0xff,
  0x1b, 0x00, 0x00, 0x00, 0x73, 0x65, 0x71, 0x75, 0x65, 0x6e, 0x74, 0x69,
  0x61, 0x6c, 0x5f, 0x31, 0x2f, 0x64, 0x65, 0x6e, 0x73, 0x65, 0x5f, 0x35,
  0x2f, 0x4d, 0x61, 0x74, 0x4d, 0x75, 0x6c, 0x00, 0x02, 0x00, 0x00, 0x00,
  0x01, 0x00, 0x00, 0x00, 0x10, 0x00, 0x00, 0x00, 0xbe, 0xfe, 0xff, 0xff,
  0x34, 0x00, 0x00, 0x00, 0x06, 0x00, 0x00, 0x00, 0x0c, 0x00, 0x00, 0x00,
  0x04, 0x00, 0x00, 0x00, 0x30, 0xfe, 0xff, 0xff, 0x1b, 0x00, 0x00, 0x00,
  0x73, 0x65, 0x71, 0x75, 0x65, 0x6e, 0x74, 0x69, 0x61, 0x6c, 0x5f, 0x31,
  0x2f, 0x64, 0x65, 0x6e, 0x73, 0x65, 0x5f, 0x34, 0x2f, 0x4d, 0x61, 0x74,
  0x4d, 0x75, 0x6c, 0x00, 0x02, 0x00, 0x00, 0x00, 0x10, 0x00, 0x00, 0x00,
  0x10, 0x00, 0x00, 0x00, 0x02, 0xff, 0xff, 0xff, 0x34, 0x00, 0x00, 0x00,
  0x05, 0x00, 0x00, 0x00, 0x0c, 0x00, 0x00, 0x00, 0x04, 0x00, 0x00, 0x00,
  0x74, 0xfe, 0xff, 0xff, 0x1b, 0x00, 0x00, 0x00, 0x73, 0x65, 0x71, 0x75,
  0x65, 0x6e, 0x74, 0x69, 0x61, 0x6c, 0x5f, 0x31, 0x2f, 0x64, 0x65, 0x6e,
  0x73, 0x65, 0x5f, 0x33, 0x2f, 0x4d, 0x61, 0x74, 0x4d, 0x75, 0x6c, 0x00,
  0x02, 0x00, 0x00, 0x00, 0x10, 0x00, 0x00, 0x00, 0x01, 0x00, 0x00, 0x00,
  0x46, 0xff, 0xff, 0xff, 0x50, 0x00, 0x00, 0x00, 0x04, 0x00, 0x00, 0x00,
  0x0c, 0x00, 0x00, 0x00, 0x04, 0x00, 0x00, 0x00, 0xb8, 0xfe, 0xff, 0xff,
  0x34, 0x00, 0x00, 0x00, 0x73, 0x65, 0x71, 0x75, 0x65, 0x6e, 0x74, 0x69,
  0x61, 0x6c, 0x5f, 0x31, 0x2f, 0x64, 0x65, 0x6e, 0x73, 0x65, 0x5f, 0x35,
  0x2f, 0x42, 0x69, 0x61, 0x73, 0x41, 0x64, 0x64, 0x2f, 0x52, 0x65, 0x61,
  0x64, 0x56, 0x61, 0x72, 0x69, 0x61, 0x62, 0x6c, 0x65, 0x4f, 0x70, 0x2f,
  0x72, 0x65, 0x73, 0x6f, 0x75, 0x72, 0x63, 0x65, 0x00, 0x00, 0x00, 0x00,
  0x01, 0x00, 0x00, 0x00, 0x01, 0x00, 0x00, 0x00, 0xa2, 0xff, 0xff, 0xff,
  0x50, 0x00, 0x00, 0x00, 0x03, 0x00, 0x00, 0x00, 0x0c, 0x00, 0x00, 0x00,
  0x04, 0x00, 0x00, 0x00, 0x14, 0xff, 0xff, 0xff, 0x34, 0x00, 0x00, 0x00,
  0x73, 0x65, 0x71, 0x75, 0x65, 0x6e, 0x74, 0x69, 0x61, 0x6c, 0x5f, 0x31,
  0x2f, 0x64, 0x65, 0x6e, 0x73, 0x65, 0x5f, 0x34, 0x2f, 0x42, 0x69, 0x61,
  0x73, 0x41, 0x64, 0x64, 0x2f, 0x52, 0x65, 0x61, 0x64, 0x56, 0x61, 0x72,
  0x69, 0x61, 0x62, 0x6c, 0x65, 0x4f, 0x70, 0x2f, 0x72, 0x65, 0x73, 0x6f,
  0x75, 0x72, 0x63, 0x65, 0x00, 0x00, 0x00, 0x00, 0x01, 0x00, 0x00, 0x00,
  0x10, 0x00, 0x00, 0x00, 0x00, 0x00, 0x0e, 0x00, 0x14, 0x00, 0x04, 0x00,
  0x00, 0x00, 0x08, 0x00, 0x0c, 0x00, 0x10, 0x00, 0x0e, 0x00, 0x00, 0x00,
  0x50, 0x00, 0x00, 0x00, 0x02, 0x00, 0x00, 0x00, 0x0c, 0x00, 0x00, 0x00,
  0x04, 0x00, 0x00, 0x00, 0x80, 0xff, 0xff, 0xff, 0x34, 0x00, 0x00, 0x00,
  0x73, 0x65, 0x71, 0x75, 0x65, 0x6e, 0x74, 0x69, 0x61, 0x6c, 0x5f, 0x31,
  0x2f, 0x64, 0x65, 0x6e, 0x73, 0x65, 0x5f, 0x33, 0x2f, 0x42, 0x69, 0x61,
  0x73, 0x41, 0x64, 0x64, 0x2f, 0x52, 0x65, 0x61, 0x64, 0x56, 0x61, 0x72,
  0x69, 0x61, 0x62, 0x6c, 0x65, 0x4f, 0x70, 0x2f, 0x72, 0x65, 0x73, 0x6f,
  0x75, 0x72, 0x63, 0x65, 0x00, 0x00, 0x00, 0x00, 0x01, 0x00, 0x00, 0x00,
  0x10, 0x00, 0x00, 0x00, 0x14, 0x00, 0x18, 0x00, 0x04, 0x00, 0x00, 0x00,
  0x08, 0x00, 0x0c, 0x00, 0x10, 0x00, 0x00, 0x00, 0x00, 0x00, 0x14, 0x00,
  0x14, 0x00, 0x00, 0x00, 0x3c, 0x00, 0x00, 0x00, 0x01, 0x00, 0x00, 0x00,
  0x20, 0x00, 0x00, 0x00, 0x18, 0x00, 0x00, 0x00, 0x04, 0x00, 0x00, 0x00,
  0x02, 0x00, 0x00, 0x00, 0xff, 0xff, 0xff, 0xff, 0x01, 0x00, 0x00, 0x00,
  0x04, 0x00, 0x04, 0x00, 0x04, 0x00, 0x00, 0x00, 0x0d, 0x00, 0x00, 0x00,
  0x64, 0x65, 0x6e, 0x73, 0x65, 0x5f, 0x33, 0x5f, 0x69, 0x6e, 0x70, 0x75,
  0x74, 0x00, 0x00, 0x00, 0x02, 0x00, 0x00, 0x00, 0x01, 0x00, 0x00, 0x00,
  0x01, 0x00, 0x00, 0x00, 0x01, 0x00, 0x00, 0x00, 0x10, 0x00, 0x00, 0x00,
  0x0c, 0x00, 0x10, 0x00, 0x07, 0x00, 0x00, 0x00, 0x08, 0x00, 0x0c, 0x00,
  0x0c, 0x00, 0x00, 0x00, 0x00, 0x00, 0x00, 0x09, 0x09, 0x00, 0x00, 0x00,
  0x09, 0x00, 0x00, 0x00
};

#endif //SINE_MODEL_H